#define x_width_wt 128
#define x_height_wt 64
static char x_bits_wt[] = {
0x00, 0x00, 0x00, 0x80, 0x03, 0x00, 0x70, 0x00, 0x00, 0x00, 0x00, 0x0c, 0x00, 0x00, 0x00, 0x00,
0x00, 0x00, 0x00, 0x80, 0x03, 0x00, 0x70, 0x00, 0x00, 0x00, 0x00, 0x0c, 0x00, 0x00, 0x00, 0x00,
0x00, 0x00, 0x00, 0x00, 0x00, 0x00, 0x70, 0x00, 0x00, 0x00, 0x00, 0x0c, 0x00, 0x00, 0x00, 0x00,
0x00, 0x80, 0xe3, 0xb8, 0xe3, 0xe1, 0x70, 0x38, 0xf8, 0xf3, 0x07, 0x7e, 0x3e, 0xbc, 0x00, 0x00,
0x00, 0x80, 0xe3, 0xb8, 0xf3, 0xf9, 0x73, 0xfe, 0xfc, 0xfb, 0x07, 0x7e, 0x77, 0xfe, 0x00, 0x00,
0x00, 0x00, 0xe3, 0x9c, 0x7b, 0x18, 0x73, 0xc6, 0x1c, 0x38, 0x00, 0x0c, 0x63, 0xe6, 0x00, 0x00,
0x00, 0x00, 0xf7, 0x9d, 0x3b, 0xfc, 0x77, 0xff, 0x7d, 0xf8, 0x00, 0x0c, 0x78, 0xc3, 0x00, 0x00,
0x00, 0x00, 0xb7, 0x9d, 0x3b, 0xfc, 0x77, 0xff, 0xf9, 0xf1, 0xe3, 0x0d, 0x7e, 0xc3, 0x00, 0x00,
0x00, 0x00, 0xbe, 0x8f, 0x3b, 0x1c, 0x70, 0x07, 0xe0, 0xc3, 0x07, 0x0c, 0x63, 0xc3, 0x00, 0x00,
0x00, 0x00, 0x1e, 0x8f, 0x3b, 0x38, 0x70, 0x0e, 0x80, 0x03, 0x07, 0x1c, 0x63, 0xe6, 0x00, 0x00,
0x00, 0x00, 0x1c, 0x87, 0x3b, 0xf8, 0x77, 0xfe, 0xfd, 0xfb, 0x07, 0x78, 0xff, 0xfe, 0x00, 0x00,
0x00, 0x00, 0x1c, 0x87, 0x3b, 0xe0, 0x67, 0xf8, 0xfd, 0xf9, 0x03, 0x70, 0xde, 0xd8, 0x00, 0x00,
0x00, 0x00, 0x00, 0x00, 0x00, 0x00, 0x00, 0x00, 0x00, 0x00, 0x00, 0x00, 0x00, 0xc0, 0x00, 0x00,
0x00, 0x00, 0x00, 0x00, 0x00, 0x00, 0x00, 0x00, 0x00, 0x00, 0x00, 0x00, 0x00, 0xe6, 0x00, 0x00,
0x00, 0x00, 0x00, 0x00, 0x00, 0x00, 0x80, 0xff, 0x01, 0x00, 0x00, 0x00, 0x00, 0x7e, 0x00, 0x00,
0x00, 0x00, 0x00, 0x00, 0x00, 0x00, 0xf0, 0xff, 0x0f, 0x00, 0x00, 0x00, 0x00, 0x18, 0x00, 0x00,
0x00, 0x00, 0x00, 0x00, 0x00, 0x00, 0xfc, 0xff, 0x3f, 0x00, 0x00, 0x00, 0x00, 0x00, 0x00, 0x00,
0x00, 0x00, 0x00, 0x00, 0x00, 0x00, 0xfe, 0xff, 0xff, 0x00, 0x00, 0x00, 0x00, 0x00, 0x00, 0x00,
0x00, 0x00, 0x00, 0x00, 0x00, 0x80, 0xff, 0xff, 0xff, 0x01, 0x00, 0x00, 0x00, 0x00, 0x00, 0x00,
0x00, 0x00, 0x00, 0x00, 0x00, 0xc0, 0xff, 0xff, 0xff, 0x03, 0x00, 0x00, 0x00, 0x00, 0x00, 0x00,
0x00, 0x00, 0x00, 0x00, 0x00, 0xe0, 0xff, 0xff, 0xff, 0x07, 0x00, 0x00, 0x00, 0x00, 0x00, 0x00,
0x00, 0x00, 0x00, 0x00, 0x00, 0xe0, 0xff, 0xff, 0xff, 0xff, 0x01, 0x00, 0x00, 0x00, 0x00, 0x00,
0x00, 0x00, 0x00, 0x00, 0x00, 0xf0, 0xff, 0xff, 0xff, 0xff, 0x0f, 0x00, 0x00, 0x00, 0x00, 0x00,
0x00, 0x00, 0x00, 0x00, 0x00, 0xf8, 0xff, 0xff, 0xff, 0xff, 0x3f, 0x00, 0x00, 0x00, 0x00, 0x00,
0x00, 0x00, 0x00, 0x00, 0x00, 0xf8, 0xff, 0xff, 0xff, 0xff, 0xff, 0x00, 0x00, 0x00, 0x00, 0x00,
0x00, 0x00, 0x00, 0x00, 0x00, 0xf8, 0xff, 0xff, 0xff, 0xff, 0xff, 0x01, 0x00, 0x00, 0x00, 0x00,
0x00, 0x00, 0x00, 0x00, 0x00, 0xfc, 0xff, 0xff, 0xff, 0xff, 0xff, 0x03, 0x00, 0x00, 0x00, 0x00,
0x00, 0x00, 0x00, 0x00, 0x00, 0xfc, 0xff, 0xff, 0xff, 0xff, 0xff, 0x07, 0x00, 0x00, 0x00, 0x00,
0x00, 0x00, 0x00, 0x00, 0x00, 0xfc, 0xff, 0xff, 0xff, 0xff, 0xff, 0x07, 0x00, 0x00, 0x00, 0x00,
0x00, 0x00, 0x00, 0x00, 0x00, 0xfc, 0xff, 0xff, 0xff, 0xff, 0xff, 0x0f, 0x00, 0x00, 0x00, 0x00,
0x00, 0x00, 0x00, 0x00, 0x00, 0xfe, 0xff, 0xff, 0xff, 0xff, 0xff, 0x0f, 0x00, 0x00, 0x00, 0x00,
0x00, 0x00, 0x00, 0x00, 0x00, 0xff, 0xff, 0xff, 0xff, 0xff, 0xff, 0x0f, 0x00, 0x00, 0x00, 0x00,
0x00, 0x00, 0x00, 0x00, 0xc0, 0xff, 0xff, 0xff, 0xff, 0xff, 0xff, 0x0f, 0x00, 0x00, 0x00, 0x00,
0x00, 0x00, 0x00, 0x00, 0xf0, 0xff, 0xff, 0x0f, 0xf0, 0xff, 0xff, 0x0f, 0x00, 0x00, 0x00, 0x00,
0x00, 0x00, 0x00, 0x00, 0xfc, 0xff, 0xff, 0x01, 0x80, 0xff, 0xff, 0x0f, 0x00, 0x00, 0x00, 0x00,
0x00, 0x00, 0x00, 0x00, 0xfe, 0xff, 0x3f, 0x00, 0x00, 0xfc, 0xff, 0x1f, 0x00, 0x00, 0x00, 0x00,
0x00, 0x00, 0x00, 0x00, 0xff, 0xff, 0x0f, 0x00, 0x00, 0xf0, 0xff, 0x3f, 0x00, 0x00, 0x00, 0x00,
0x00, 0x00, 0x00, 0x80, 0xff, 0xff, 0x03, 0xf0, 0x07, 0xc0, 0xff, 0x7f, 0x00, 0x00, 0x00, 0x00,
0x00, 0x00, 0x00, 0x80, 0xff, 0xff, 0x00, 0xff, 0x7f, 0x80, 0xff, 0xff, 0x00, 0x00, 0x00, 0x00,
0x00, 0x00, 0x00, 0xc0, 0xff, 0x7f, 0xc0, 0xff, 0xff, 0x03, 0xfe, 0xff, 0x01, 0x00, 0x00, 0x00,
0x00, 0x00, 0x00, 0xc0, 0xff, 0x3f, 0xf0, 0xff, 0xff, 0x0f, 0xfc, 0xff, 0x01, 0x00, 0x00, 0x00,
0x00, 0x00, 0x00, 0xe0, 0xff, 0x1f, 0xf8, 0xff, 0xff, 0x1f, 0xf8, 0xff, 0x03, 0x00, 0x00, 0x00,
0x00, 0x00, 0x00, 0xe0, 0xff, 0x0f, 0xfe, 0xff, 0xff, 0x7f, 0xf0, 0xff, 0x03, 0x00, 0x00, 0x00,
0x00, 0x00, 0x00, 0xe0, 0xff, 0x07, 0xff, 0x07, 0xe0, 0xff, 0xe0, 0xff, 0x07, 0x00, 0x00, 0x00,
0x00, 0x00, 0x00, 0xf0, 0xff, 0x83, 0xff, 0x00, 0x00, 0xff, 0xc1, 0xff, 0x07, 0x00, 0x00, 0x00,
0x00, 0x00, 0x00, 0xf0, 0xff, 0xc1, 0x3f, 0x00, 0x00, 0xfc, 0xc3, 0xff, 0x07, 0x00, 0x00, 0x00,
0x00, 0x00, 0x00, 0xf0, 0xff, 0xe1, 0x0f, 0x00, 0x00, 0xf8, 0xc3, 0xff, 0x0f, 0x00, 0x00, 0x00,
0x00, 0x00, 0x00, 0xf0, 0xff, 0xf3, 0x07, 0xfc, 0x3f, 0xe0, 0xe7, 0xff, 0x0f, 0x00, 0x00, 0x00,
0x00, 0x00, 0x00, 0xf0, 0xff, 0xff, 0x03, 0xff, 0xff, 0xc0, 0xff, 0xff, 0x0f, 0x00, 0x00, 0x00,
0x00, 0x00, 0x00, 0xf0, 0xff, 0xff, 0x81, 0xff, 0xff, 0x81, 0xff, 0xff, 0x0f, 0x00, 0x00, 0x00,
0x00, 0x00, 0x00, 0xf0, 0xff, 0xff, 0xe0, 0xff, 0xff, 0x07, 0xff, 0xff, 0x0f, 0x00, 0x00, 0x00,
0x00, 0x00, 0x00, 0xe0, 0xff, 0x7f, 0xf0, 0xff, 0xff, 0x0f, 0xfe, 0xff, 0x0f, 0x00, 0x00, 0x00,
0x00, 0x00, 0x00, 0xe0, 0xff, 0x7f, 0xf8, 0x0f, 0xf0, 0x1f, 0xfe, 0xff, 0x07, 0x00, 0x00, 0x00,
0x00, 0x00, 0x00, 0xe0, 0xff, 0xff, 0xfc, 0x03, 0xc0, 0x3f, 0xff, 0xff, 0x07, 0x00, 0x00, 0x00,
0x00, 0x00, 0x00, 0xc0, 0xff, 0xff, 0xff, 0x01, 0x80, 0xff, 0xff, 0xff, 0x07, 0x00, 0x00, 0x00,
0x00, 0x00, 0x00, 0xc0, 0xff, 0xff, 0xff, 0x00, 0x00, 0xff, 0xff, 0xff, 0x03, 0x00, 0x00, 0x00,
0x00, 0x00, 0x00, 0x80, 0xff, 0xff, 0x7f, 0xf0, 0x0f, 0xfe, 0xff, 0xff, 0x03, 0x00, 0x00, 0x00,
0x00, 0x00, 0x00, 0x80, 0xff, 0xff, 0x3f, 0xf8, 0x1f, 0xfc, 0xff, 0xff, 0x01, 0x00, 0x00, 0x00,
0x00, 0x00, 0x00, 0x00, 0xff, 0xff, 0x3f, 0xfc, 0x3f, 0xfc, 0xff, 0xff, 0x00, 0x00, 0x00, 0x00,
0x00, 0x00, 0x00, 0x00, 0xfe, 0xff, 0x3f, 0x3e, 0x7c, 0xfc, 0xff, 0x7f, 0x00, 0x00, 0x00, 0x00,
0x00, 0x00, 0x00, 0x00, 0xfc, 0xff, 0xff, 0x1f, 0xf8, 0xff, 0xff, 0x3f, 0x00, 0x00, 0x00, 0x00,
0x00, 0x00, 0x00, 0x00, 0xf8, 0xff, 0xff, 0x0f, 0xf0, 0xff, 0xff, 0x1f, 0x00, 0x00, 0x00, 0x00,
0x00, 0x00, 0x00, 0x00, 0xe0, 0xff, 0xff, 0x07, 0xe0, 0xff, 0xff, 0x07, 0x00, 0x00, 0x00, 0x00,
0x00, 0x00, 0x00, 0x00, 0x00, 0xff, 0xff, 0x07, 0xe0, 0xff, 0xff, 0x00, 0x00, 0x00, 0x00, 0x00,
};
